{"0": "<UNK>", "1": "\n", "2": " ", "3": "!", "4": "\"", "5": "%", "6": "&", "7": "'", "8": "(", "9": ")", "10": ",", "11": "-", "12": ".", "13": "/", "14": "0", "15": "1", "16": "2", "17": "3", "18": "4", "19": "5", "20": "6", "21": "7", "22": "8", "23": "9", "24": ":", "25": ";", "26": "=", "27": "A", "28": "B", "29": "C", "30": "D", "31": "E", "32": "F", "33": "G", "34": "H", "35": "I", "36": "J", "37": "K", "38": "L", "39": "M", "40": "N", "41": "O", "42": "P", "43": "Q", "44": "R", "45": "S", "46": "T", "47": "U", "48": "V", "49": "W", "50": "X", "51": "Y", "52": "Z", "53": "[", "54": "]", "55": "a", "56": "b", "57": "c", "58": "d", "59": "e", "60": "f", "61": "g", "62": "h", "63": "i", "64": "j", "65": "k", "66": "l", "67": "m", "68": "n", "69": "o", "70": "p", "71": "q", "72": "r", "73": "s", "74": "t", "75": "u", "76": "v", "77": "w", "78": "x", "79": "y", "80": "z", "81": "|", "82": "\u00a0", "83": "\u00ab", "84": "\u00b0", "85": "\u00bb", "86": "\u00c0", "87": "\u00c9", "88": "\u00ce", "89": "\u00e0", "90": "\u00e1", "91": "\u00e2", "92": "\u00e7", "93": "\u00e8", "94": "\u00e9", "95": "\u00ea", "96": "\u00eb", "97": "\u00ed", "98": "\u00ee", "99": "\u00ef", "100": "\u00f3", "101": "\u00f4", "102": "\u00f6", "103": "\u00f9", "104": "\u00fb", "105": "\u00fc", "106": "\u014d", "107": "\u0153", "108": "\u2013", "109": "\u2014", "110": "\u2019", "111": " d", "112": "es", "113": " l", "114": "en", "115": "on", "116": "an", "117": " de", "118": " p", "119": "re", "120": "ti", "121": " s", "122": "er", "123": " c", "124": "is", "125": "in", "126": "ar", "127": "ou", "128": " a", "129": "et", "130": "qu", "131": "le", "132": "ent", "133": "it", "134": " la", "135": "or", "136": "un", "137": "\n\n", "138": "ur", "139": " et", "140": "te", "141": " m", "142": "il", "143": "al", "144": " le", "145": "tion", "146": "om", "147": " en", "148": " f", "149": " \u00e0", "150": "ra", "151": "el", "152": "ri", "153": " L", "154": " t", "155": " un", "156": "us", "157": "r\u00e9", "158": " des", "159": "que", "160": " du", "161": "est", "162": " C", "163": "our", "164": ".\n\n", "165": " (", "166": " S", "167": "ro", "168": "ment", "169": "ant", "170": "ie", "171": " n", "172": "ch", "173": "ans", "174": "ce", "175": " par", "176": " M", "177": " :", "178": "19", "179": "au", "180": "ol", "181": "at", "182": " les", "183": " P", "184": " v", "185": " \u00e9", "186": "ne", "187": " au", "188": "me", "189": "as", "190": " est", "191": " \n", "192": "ont", "193": "ation", "194": "si", "195": " b", "196": " B", "197": " A", "198": "ci", "199": "se", "200": "\u00e9e", "201": "20", "202": "ve", "203": " qu", "204": "ais", "205": " g", "206": "res", "207": "de", "208": "ag", "209": "ire", "210": " com", "211": "li", "212": " dans", "213": " D", "214": " d\u00e9", "215": "am", "216": "t\u00e9", "217": " re", "218": " T", "219": " une", "220": "ran", "221": " R", "222": "ain", "223": " r\u00e9", "224": " con", "225": "di", "226": " F", "227": " G", "228": "ers", "229": "ig", "230": " pour", "231": "ot", "232": " I", "233": " se", "234": "ist", "235": "ir", "236": " in", "237": "os", "238": " E", "239": " ch", "240": " e", "241": " pl", "242": " J", "243": " j", "244": "ale", "245": "les", "246": "ab", "247": "ac", "248": "mp", "249": "elle", "250": " pro", "251": " H", "252": " sur", "253": "ul", "254": "ren", "255": "it\u00e9", "256": "og", "257": "tu", "258": "op", "259": "ter", "260": "ic", "261": "\u00e8re", "262": " N", "263": "ait", "264": ".\n", "265": "iv", "266": " qui", "267": "eu", "268": "ion", "269": "ff", "270": " h", "271": "ouv", "272": "ien", "273": " \n\n", "274": "\u00e8s", "275": "\u00e9ri", "276": "ue", "277": "ces", "278": " o", "279": "tre", "280": "pe", "281": "n\u00e9", "282": " Le", "283": "201", "284": "vec", "285": "ique", "286": "and", "287": "'un", "288": "ille", "289": " il", "290": "ap", "291": "||", "292": "aire", "293": " K", "294": "200", "295": " V", "296": "urs", "297": "mi", "298": "ge", "299": " que", "300": "ai", "301": "ort", "302": "ction", "303": " ex", "304": " avec", "305": " r", "306": "ques", "307": "\u00e9s", "308": "ite", "309": " su", "310": " plus", "311": "ux", "312": " an", "313": "ine", "314": "),", "315": "ois", "316": " son", "317": "vi", "318": "mb", "319": "'\u00e9", "320": "ut", "321": "age", "322": " Ch", "323": "ub", "324": "ad", "325": "ph", "326": "st", "327": "ill", "328": "ay", "329": "nes", "330": "18", "331": " ||", "332": "du", "333": "che", "334": " Il", "335": " La", "336": " ou", "337": " \u00ab", "338": "199", "339": "aux", "340": "pp", "341": "oc", "342": " comm", "343": "ard", "344": " parti", "345": "ous", "346": " ,", "347": "ib", "348": "ance", "349": " W", "350": " pr\u00e9", "351": "r\u00e8s", "352": " sont", "353": " ar", "354": "tique", "355": " \u00bb", "356": "'A", "357": "ond", "358": "um", "359": "oire", "360": " di", "361": "ons", "362": "entre", "363": "ors", "364": "teur", "365": " comp", "366": "rou", "367": "ert", "368": "uis", "369": "ob", "370": "ord", "371": "end", "372": " O", "373": "ui", "374": "im", "375": " sa", "376": "lis", "377": " tra", "378": "onn", "379": " nom", "380": "f\u00e9", "381": "ris", "382": "ct", "383": " ra", "384": "ette", "385": ")\n", "386": "he", "387": " aux", "388": "lle", "389": "ing", "390": " pas", "391": "mes", "392": "la", "393": "Le", "394": "ran\u00e7", "395": "oir", "396": "remi", "397": "iste", "398": " for", "399": "i\u00e8", "400": " \u00e9t", "401": "oy", "402": "av", "403": "l\u00e9", "404": "Un", "405": "ins", "406": "f\u00e9ren", "407": "oci", "408": "id", "409": "198", "410": "ure", "411": "\u00e9c", "412": "ier", "413": " \u00e9t\u00e9", "414": " ;", "415": "  ", "416": "raph", "417": " Les", "418": "art", "419": "ran\u00e7ais", "420": " -", "421": " av", "422": " premi", "423": "tin", "424": "eur", "425": "ations", "426": "ru", "427": " ce", "428": "tif", "429": "ec", "430": " ac", "431": " En", "432": " cont", "433": "ograph", "434": "f\u00e9rences", "435": "oi", "436": " Par", "437": "od", "438": "\u00e9es", "439": " comme", "440": "197", "441": "ens", "442": "'une", "443": "amp", "444": " al", "445": " deux", "446": " entre", "447": "ussi", "448": "olog", "449": " fran\u00e7ais", "450": " commun", "451": "cip", "452": "rit", "453": " am", "454": " \u00c9", "455": " app", "456": "La", "457": "alis", "458": "all", "459": "sent", "460": "tions", "461": " cl", "462": " te", "463": "iens", "464": "ubli", "465": "tat", "466": "ence", "467": "En", "468": " d\u00e9c", "469": "aine", "470": "ants", "471": "\u00e9m", "472": " mar", "473": "ign", "474": "ang", "475": "tres", "476": "alement", "477": "rin", "478": " Mar", "479": " ses", "480": " ti", "481": "out", "482": "'in", "483": "sion", "484": "'ar", "485": "\u00e9d", "486": "\u00e9ric", "487": " mais", "488": "ture", "489": "\u00e9n\u00e9", "490": "imp", "491": " An", "492": "\u00e9n", "493": "erm", "494": " po", "495": "ours", "496": " ne", "497": " peu", "498": "\u00e9t", "499": "ass"}